TRT-8401-EntropyCalibration2
input: 3c9cdc9a
input.1: 3ef3a9c9
onnx::Mul_778: 3c010a14
onnx::Conv_779: 3e9a99d9
input.3: 3e092dab
onnx::Mul_782: 3c010a14
onnx::ReduceMean_783: 3d59d57d
input.7: 3d163900
input.11: 3d8ae3c4
onnx::Mul_786: 3c0be0ff
onnx::Conv_787: 3d810449
onnx::Sigmoid_788: 3d9dc973
onnx::Mul_789: 3c0203de
input.15: 3e87c419
input.19: 3f07c7ae
input.23: 3e3bccaa
onnx::Mul_795: 3c010a14
onnx::ReduceMean_796: 3e0f1e5a
input.27: 3df43958
input.31: 3d9d84a3
onnx::Mul_799: 3ad9442d
onnx::Conv_800: 3b104875
onnx::Sigmoid_801: 3ca02dfb
onnx::Mul_802: 3be71b41
input.35: 3e15f07c
onnx::Add_1636: 3eec7e6c
input.39: 3f0a32cd
input.43: 3e89db9c
onnx::Mul_809: 3c010a14
onnx::Shape_810: 3e27a513
input.47: 3ec82d31
onnx::Mul_882: 3c010a14
onnx::ReduceMean_883: 3e8e69bd
input.51: 3e13c4de
input.55: 3e1279a5
onnx::Mul_886: 3c0a8509
onnx::Conv_887: 3e1279a4
onnx::Sigmoid_888: 3d9e188a
onnx::Mul_889: 3c01104f
input.59: 3e8a9400
input.63: 3f1950b7
input.67: 3e735cc3
onnx::Mul_895: 3c010a14
onnx::Conv_896: 3e205d60
input.71: 3e1829b0
onnx::Mul_899: 3c010a14
onnx::ReduceMean_900: 3d8e82e7
input.75: 3cc660ab
input.79: 3d2fe8d5
onnx::Mul_903: 3bffe2ff
onnx::Conv_904: 3d333c57
onnx::Sigmoid_905: 3d55972c
onnx::Mul_906: 3bfeabda
input.83: 3d0a9f99
onnx::Add_1654: 3ec1df3f
input.87: 3f188442
input.91: 3e57b5b6
onnx::Mul_913: 3c010a14
onnx::Conv_914: 3dd357f4
input.95: 3e939c41
onnx::Mul_917: 3c010a14
onnx::ReduceMean_918: 3e5a6a53
input.99: 3d14bec4
input.103: 3d931e46
onnx::Mul_921: 3c00c003
onnx::Conv_922: 3d40f4cf
onnx::Sigmoid_923: 3d598d76
onnx::Mul_924: 3c046ad8
input.107: 3d0ea383
onnx::Add_1663: 3e9e35c1
input.111: 3f2a814c
input.115: 3e5bfb50
onnx::Mul_931: 3c010a14
onnx::Conv_932: 3d405c79
input.119: 3ed09d7b
onnx::Mul_935: 3c010a14
onnx::ReduceMean_936: 3ed3b1c1
input.123: 3d3817cd
input.127: 3e1bd96e
onnx::Mul_939: 3c06cbee
onnx::Conv_940: 3d8e6fe5
onnx::Sigmoid_941: 3da86dc7
onnx::Mul_942: 3c005ceb
input.131: 3dc406ec
onnx::Add_1672: 3f28348c
input.135: 3f9539d7
input.139: 3e32923b
onnx::Mul_949: 3c010a14
onnx::Shape_950: 3dc158f5
input.143: 3e1b5e28
onnx::Mul_1022: 3c010a14
onnx::ReduceMean_1023: 3df4eeca
input.147: 3d995258
input.151: 3d55b723
onnx::Mul_1026: 3adbe1be
onnx::Conv_1027: 3b18aaf9
onnx::Sigmoid_1028: 3c04618a
onnx::Mul_1029: 3bb0ce3e
input.155: 3d545dc1
input.159: 3eefd76a
input.163: 3de3e782
onnx::Mul_1035: 3c011223
onnx::Conv_1036: 3d971934
input.167: 3e2cff2d
onnx::Mul_1039: 3c010a14
onnx::ReduceMean_1040: 3d9b7999
input.171: 3c906e20
input.175: 3d254fb8
onnx::Mul_1043: 3c026031
onnx::Conv_1044: 3d3f121a
onnx::Sigmoid_1045: 3d293706
onnx::Mul_1046: 3bf52185
input.179: 3ca9786c
onnx::Add_1690: 3e9c7732
input.183: 3f064324
input.187: 3dfc7ece
onnx::Mul_1053: 3c010a14
onnx::Conv_1054: 3d710b26
input.191: 3e592b72
onnx::Mul_1057: 3c010a14
onnx::ReduceMean_1058: 3ddb6bfd
input.195: 3ccc2630
input.199: 3d7ac722
onnx::Mul_1061: 3c0d6d1d
onnx::Conv_1062: 3d6561f3
onnx::Sigmoid_1063: 3d5cb2ff
onnx::Mul_1064: 3c01d672
input.203: 3d2d5565
onnx::Add_1699: 3e7c05da
input.207: 3f1f7856
input.211: 3e04e6bf
onnx::Mul_1071: 3c010a14
onnx::Conv_1072: 3d658cd3
input.215: 3e3d633d
onnx::Mul_1075: 3c010a14
onnx::ReduceMean_1076: 3df218a7
input.219: 3cb33ea4
input.223: 3d61878b
onnx::Mul_1079: 3c029fb3
onnx::Conv_1080: 3d404638
onnx::Sigmoid_1081: 3d25a582
onnx::Mul_1082: 3c010047
input.227: 3cbf6d55
onnx::Add_1708: 3e8511ea
input.231: 3f2561b1
input.235: 3df02be9
onnx::Mul_1089: 3c010a14
onnx::Shape_1090: 3d78093c
input.239: 3e2855b6
onnx::Mul_1162: 3c010a14
onnx::ReduceMean_1163: 3ddc5a94
input.243: 3dba405c
input.247: 3d7e989e
onnx::Mul_1166: 3b6ac108
onnx::Conv_1167: 3b153b9b
onnx::Sigmoid_1168: 3b88de8c
onnx::Mul_1169: 3bb452eb
input.251: 3d75a3a3
input.255: 3f000f92
input.259: 3de467a5
onnx::Mul_1175: 3c010a14
onnx::Conv_1176: 3d6a6c4e
input.263: 3e3a586a
onnx::Mul_1179: 3c010a14
onnx::ReduceMean_1180: 3dd65018
input.267: 3ccd7ea8
input.271: 3e027fcf
onnx::Mul_1183: 3c00fb16
onnx::Conv_1184: 3d695741
onnx::Sigmoid_1185: 3db518ec
onnx::Mul_1186: 3c018a5a
input.275: 3d7b270a
onnx::Add_1726: 3e48fe6e
input.279: 3f0cce52
input.283: 3e08babe
onnx::Mul_1193: 3c00f9f4
onnx::Conv_1194: 3db68aef
input.287: 3e9e19fe
onnx::Mul_1197: 3c010a14
onnx::ReduceMean_1198: 3e8e7826
input.291: 3ce07981
input.295: 3da6926a
onnx::Mul_1201: 3c11f7b7
onnx::Conv_1202: 3d90948b
onnx::Sigmoid_1203: 3d968a95
onnx::Mul_1204: 3c007ecd
input.299: 3d58fb36
onnx::Add_1735: 3e81c0cd
input.303: 3f1be1b8
input.307: 3dbce89c
onnx::Mul_1211: 3c00f1e0
onnx::Conv_1212: 3d45fda1
input.311: 3e1ba1ea
onnx::Mul_1215: 3c010a14
onnx::ReduceMean_1216: 3e227934
input.315: 3cb18804
input.319: 3d8eb63f
onnx::Mul_1219: 3c0156a8
onnx::Conv_1220: 3d64a2e4
onnx::Sigmoid_1221: 3d6099d5
onnx::Mul_1222: 3bfebe17
input.323: 3d29b427
onnx::Add_1744: 3e79b5de
input.327: 3f2c1faa
input.331: 3e034306
onnx::Mul_1229: 3c00d19f
onnx::Conv_1230: 3d4207ed
input.335: 3e3ddcfa
onnx::Mul_1233: 3c010a14
onnx::ReduceMean_1234: 3decb8b8
input.339: 3cbb774a
input.343: 3dcc977d
onnx::Mul_1237: 3c00b3d2
onnx::Conv_1238: 3d659002
onnx::Sigmoid_1239: 3d70fe43
onnx::Mul_1240: 3bf91d5e
input.347: 3ce002ae
onnx::Add_1753: 3e784af2
input.351: 3f5f8c86
input.355: 3dedf6e7
onnx::Mul_1247: 3c00f1e3
onnx::Conv_1248: 3d718342
input.359: 3e7f31a0
onnx::Mul_1251: 3c010a14
onnx::ReduceMean_1252: 3e8372ec
input.363: 3cc49f84
input.367: 3d90e4f0
onnx::Mul_1255: 3c00f0b2
onnx::Conv_1256: 3d9067e5
onnx::Sigmoid_1257: 3d93a42b
onnx::Mul_1258: 3c00a30f
input.371: 3d24d21e
onnx::Add_1762: 3e5b5365
input.375: 3f52593b
input.379: 3e08aef1
onnx::Mul_1265: 3c010a14
onnx::Conv_1266: 3e07a4da
input.383: 3e68d414
onnx::Mul_1269: 3c010a14
onnx::ReduceMean_1270: 3e1bc4f6
input.387: 3d82cb6b
input.391: 3d9ab65a
onnx::Mul_1273: 3bebd207
onnx::Conv_1274: 3b10e3c8
onnx::Sigmoid_1275: 3b948349
onnx::Mul_1276: 3b9f0556
input.395: 3d9d3fda
input.399: 3ed27187
input.403: 3db18272
onnx::Mul_1282: 3c011223
onnx::Conv_1283: 3d6fa9e9
input.407: 3e43c84b
onnx::Mul_1286: 3c010a14
onnx::ReduceMean_1287: 3e483717
input.411: 3cfa89fd
input.415: 3d8ed53b
onnx::Mul_1290: 3c00de2a
onnx::Conv_1291: 3d684087
onnx::Sigmoid_1292: 3d7331d5
onnx::Mul_1293: 3c00f631
input.419: 3cc75834
onnx::Add_1780: 3e66c9b9
input.423: 3ed78b1a
input.427: 3dcbd8c8
onnx::Mul_1300: 3c00f1e2
onnx::Conv_1301: 3d28efed
input.431: 3e6c5f7d
onnx::Mul_1304: 3c010a14
onnx::ReduceMean_1305: 3e71c3fb
input.435: 3cccd12d
input.439: 3d99ffc3
onnx::Mul_1308: 3c009d4c
onnx::Conv_1309: 3d641fa1
onnx::Sigmoid_1310: 3d749f88
onnx::Mul_1311: 3bff2268
input.443: 3cfd880e
onnx::Add_1789: 3e53bdca
input.447: 3ef6cc88
input.451: 3dd90368
onnx::Mul_1318: 3c00f9f4
onnx::Conv_1319: 3d119e41
input.455: 3e3ccc5d
onnx::Mul_1322: 3c010a14
onnx::ReduceMean_1323: 3df667a7
input.459: 3cba07ed
input.463: 3d696887
onnx::Mul_1326: 3c06e5c9
onnx::Conv_1327: 3d3d86fb
onnx::Sigmoid_1328: 3d77773d
onnx::Mul_1329: 3bf634e6
input.467: 3d8c7efb
onnx::Add_1798: 3e465d97
input.471: 3f0b3236
input.475: 3dd6e68b
onnx::Mul_1336: 3c01121c
onnx::Conv_1337: 3d499bd2
input.479: 3e3ae9fa
onnx::Mul_1340: 3c010a14
onnx::ReduceMean_1341: 3df27609
input.483: 3cc8359f
input.487: 3d434e26
onnx::Mul_1344: 3c008f81
onnx::Conv_1345: 3d3dd988
onnx::Sigmoid_1346: 3d348573
onnx::Mul_1347: 3bf8cb0e
input.491: 3cae2100
onnx::Add_1807: 3e4a631f
input.495: 3f1dda42
input.499: 3dcef0a0
onnx::Mul_1354: 3c00f1dd
onnx::Conv_1355: 3d149779
input.503: 3df9c484
onnx::Mul_1358: 3c010a14
onnx::ReduceMean_1359: 3dff2394
input.507: 3cac4fd1
input.511: 3d6ce67e
onnx::Mul_1362: 3c0085b0
onnx::Conv_1363: 3d41aa4a
onnx::Sigmoid_1364: 3d623cd2
onnx::Mul_1365: 3bfe7653
input.515: 3cbf4492
onnx::Add_1816: 3e315244
input.519: 3f11f33a
input.523: 3e0dd0fc
onnx::Mul_1372: 3c010a14
onnx::Shape_1373: 3d73e3e1
input.527: 3f347e16
onnx::Mul_1445: 3c010a14
onnx::ReduceMean_1446: 3f347e16
input.531: 3d8c6b80
input.535: 3ec5daa4
onnx::Mul_1449: 3c010a14
onnx::Conv_1450: 3d4b5d0a
onnx::Sigmoid_1451: 3e4a696a
onnx::Mul_1452: 3c010a14
input.539: 3e94ec9c
input.543: 3ed60e3f
input.547: 3db55c59
onnx::Mul_1458: 3c010a14
onnx::Conv_1459: 3d434fc2
input.551: 3ebc1cf8
onnx::Mul_1462: 3c010a14
onnx::ReduceMean_1463: 3ebc1cf8
input.555: 3cb2aee9
input.559: 3d8ca30c
onnx::Mul_1466: 3c0aac26
onnx::Conv_1467: 3d68bedf
onnx::Sigmoid_1468: 3d5ddccf
onnx::Mul_1469: 3bfb56ee
input.563: 3d1ad7b6
onnx::Add_1834: 3e611ed3
input.567: 3ee3a04e
input.571: 3dcb922b
onnx::Mul_1476: 3c010a14
onnx::Conv_1477: 3d47d365
input.575: 3e418200
onnx::Mul_1480: 3c010a14
onnx::ReduceMean_1481: 3e0884ca
input.579: 3cac4909
input.583: 3d8abfb6
onnx::Mul_1484: 3c01f8f2
onnx::Conv_1485: 3d674001
onnx::Sigmoid_1486: 3d618ae9
onnx::Mul_1487: 3bfd075e
input.587: 3d160057
onnx::Add_1843: 3e5327e9
input.591: 3efd85d7
input.595: 3de3f811
onnx::Mul_1494: 3c011222
onnx::Conv_1495: 3d292f3e
input.599: 3e1c8a9b
onnx::Mul_1498: 3c010a14
onnx::ReduceMean_1499: 3dc05cd6
input.603: 3cbd4581
input.607: 3d66f649
onnx::Mul_1502: 3c00976f
onnx::Conv_1503: 3d411104
onnx::Sigmoid_1504: 3d616b53
onnx::Mul_1505: 3c00abd4
input.611: 3cb76803
onnx::Add_1852: 3e45b396
input.615: 3f094499
input.619: 3df37e61
onnx::Mul_1512: 3c010a14
onnx::Conv_1513: 3d1458fe
input.623: 3e17c6e7
onnx::Mul_1516: 3c010a14
onnx::ReduceMean_1517: 3e1b298d
input.627: 3cb06f7a
input.631: 3d81190e
onnx::Mul_1520: 3c00a572
onnx::Conv_1521: 3d430689
onnx::Sigmoid_1522: 3d4e1038
onnx::Mul_1523: 3bfa785d
input.635: 3c93670a
onnx::Add_1861: 3e4b37af
input.639: 3f2b4cac
input.643: 3e048599
onnx::Mul_1530: 3c01121e
onnx::Conv_1531: 3d15a342
input.647: 3e274c11
onnx::Mul_1534: 3c010a14
onnx::ReduceMean_1535: 3e1027b8
input.651: 3cc8c0bb
input.655: 3d80d172
onnx::Mul_1538: 3c060159
onnx::Conv_1539: 3d42e93e
onnx::Sigmoid_1540: 3d464fb7
onnx::Mul_1541: 3c00022f
input.659: 3cca79b9
onnx::Add_1870: 3e420f62
input.663: 3f402ec5
input.667: 3e0ac5a6
onnx::Mul_1548: 3c011223
onnx::Conv_1549: 3d0082de
input.671: 3e36c317
onnx::Mul_1552: 3c010a14
onnx::ReduceMean_1553: 3dd210d2
input.675: 3cc7afdb
input.679: 3d8c799f
onnx::Mul_1556: 3c01379a
onnx::Conv_1557: 3d67b4c5
onnx::Sigmoid_1558: 3d37d5da
onnx::Mul_1559: 3c00a26a
input.683: 3cc5b66e
onnx::Add_1879: 3e455471
input.687: 3f5558eb
input.691: 3e0f125d
onnx::Mul_1566: 3c011222
onnx::Conv_1567: 3cea9af3
input.695: 3e325ac5
onnx::Mul_1570: 3c010a14
onnx::ReduceMean_1571: 3dea5e9c
input.699: 3cc05c52
input.703: 3d6dfffd
onnx::Mul_1574: 3c13ecc2
onnx::Conv_1575: 3d646149
onnx::Sigmoid_1576: 3d3db627
onnx::Mul_1577: 3bfc082c
input.707: 3cbf28b7
onnx::Add_1888: 3e81f61e
input.711: 3f7d88e2
input.715: 3df10004
onnx::Mul_1584: 3c010a14
onnx::Conv_1585: 3d70d13d
input.719: 3e88f9f0
onnx::Mul_1588: 3c010a14
onnx::ReduceMean_1589: 3dd4f8f5
input.723: 3cc9da52
input.727: 3d190fec
onnx::Mul_1592: 3bfffbba
onnx::Conv_1593: 3ce7563c
onnx::Sigmoid_1594: 3d226433
onnx::Mul_1595: 3bf71306
input.731: 3d85bb0d
input.735: 3ec3addd
input.739: 3e19157c
onnx::Mul_1601: 3c010a14
onnx::Conv_1602: 3d6fac1c
input.743: 3e5fc9db
onnx::Mul_1605: 3c010a14
onnx::ReduceMean_1606: 3dfa9d1c
input.747: 3ced4013
input.751: 3e6cce9f
onnx::Mul_1609: 3c010a14
onnx::Conv_1610: 3dc72284
onnx::Sigmoid_1611: 3dfa1bb5
onnx::Mul_1612: 3c031235
input.755: 3d85bdd2
onnx::Add_1906: 3e6c3dfa
input.759: 3ee0f0d7
input.763: 3e4624e8
onnx::Mul_1619: 3c010a14
onnx::GlobalAveragePool_1620: 3d6b8ce9
onnx::Flatten_1621: 3c916af4
output: 3e683a1a
